TRT-8XXX-EntropyCalibration2
images: 3c010204
451: 3d77efe0
465: 3e5870e2
479: 3e4a952a
493: 3e04e9d4
507: 3d9ad5ab
521: 3d9c1830
535: 3d9ebd7b
549: 3e0bd7af
563: 3e148912
577: 3e3ab56b
591: 3db44891
605: 3d710204
619: 3da3060c
633: 3dc02041
647: 3d9f7efe
661: 3d914285
675: 3d854a95
689: 3d874e9d
703: 3d61a347
717: 3d5c78f2
724: 3d5c78f2
731: 3d5c78f2
739: 3d5c78f2
753: 3d764c99
767: 3de12245
779: 3d914285
786: 3d914285
800: 3db3468d
814: 3d620408
828: 3da0a143
842: 3dbfbf7f
856: 3e3c78f2
868: 3e148912
875: 3e148912
889: 3d82c58b
903: 3d7e5cb9
917: 3d8e5cb9
931: 3d84e9d4
946: 3e3c78f2
960: 3d9ddbb7
974: 3d8eddbb
988: 3d86ad5b
1002: 3d3c3871
1017: 3de12245
1031: 3d820408
1045: 3d1e3c79
1059: 3d060c18
1166: 3d858b16
1181: 3e4f5ebd
1208: 3df91224
1256: 3d5bf7f0
1271: 3e9d5ab5
1298: 3e0bd7af
1073: 3caefdfc
1346: 3d7f5ebd
1361: 3e87af5f
1388: 3dbf3e7d
